

// Automatically created from a TensorFlow Lite flatbuffer using the command:
// xxd -i sine_model.tflite > sine_model_data.cc
// See the README for a full description of the creation process.

#include "data.h"

// We need to keep the data array aligned on some architectures.
const float test[30][4] = {
  {6.9, 3.1, 5.4, 2.1 },
  {7.2, 3.2, 6.0, 1.8 },
  {5.8, 2.7, 4.1, 1.0 },
  {4.6, 3.1, 1.5, 0.2 },
  {5.7, 2.5, 5.0, 2.0 },
  {6.9, 3.1, 4.9, 1.5 },
  {5.7, 3.8, 1.7, 0.3 },
  {6.4, 3.1, 5.5, 1.8 },
  {5.4, 3.4, 1.7, 0.2 },
  {5.6, 2.9, 3.6, 1.3 },
  {6.1, 2.8, 4.7, 1.2 },//
  {4.8, 3.1, 1.6, 0.2 },//
  {7.1, 3.0, 5.9, 2.1 },//i use "//" when i updat each the line of the array
  {5.1, 3.8, 1.5, 0.3 },//
  {5.4, 3.7, 1.5, 0.2 },//
  {6.3, 2.8, 5.1, 1.5 },//
  {6.4, 3.2, 4.5, 1.5 },//
  {6.1, 2.9, 4.7, 1.4 },//
  {7.7, 3.0, 6.1, 2.3 },//
  {5.2, 3.4, 1.4, 0.2 },//
  {6.4, 3.2, 5.3, 2.3 },//
  {4.8, 3. , 1.4, 0.3 },//
  {5.1, 3.8, 1.6, 0.2 },//
  {4.7, 3.2, 1.3, 0.2 },//
  {6.7, 3.1, 5.6, 2.4 },//
  {5.1, 3.5, 1.4, 0.3 },//
  {5.1, 3.8, 1.9, 0.4 },//
  {6.2, 2.8, 4.8, 1.8 },//
  {6.6, 3. , 4.4, 1.4 },//
  {5.6, 2.5, 3.9, 1.1} 
};

const float labels[30][3] = {
  {0., 0., 1.},
  {0., 0., 1.},//
  {0., 1., 0.},
  {1., 0., 0.},//
  {0., 0., 1.},//
  {0., 1., 0.},//
  {1., 0., 0.},//
  {0., 0., 1.},//
  {1., 0., 0.},//
  {0., 1., 0.},//
  {0., 1., 0.},//
  {1., 0., 0.},//
  {0., 0., 1.},//
  {1., 0., 0.},//
  {1., 0., 0.},//
  {0., 0., 1.},//
  {0., 1., 0.},//
  {0., 1., 0.},//
  {0., 0., 1.},//
  {1., 0., 0.},//
  {0., 0., 1.},//
  {1., 0., 0.},//
  {1., 0., 0.},//
  {1., 0., 0.},//
  {0., 0., 1.},//
  {1., 0., 0.},//
  {1., 0., 0.},//
  {0., 0., 1.},//
  {0., 1., 0.},//
  {0., 1., 0.},   
};
const unsigned char mi_data[] =  {
  0x1c, 0x00, 0x00, 0x00, 0x54, 0x46, 0x4c, 0x33, 0x00, 0x00, 0x12, 0x00,
  0x1c, 0x00, 0x04, 0x00, 0x08, 0x00, 0x0c, 0x00, 0x10, 0x00, 0x14, 0x00,
  0x00, 0x00, 0x18, 0x00, 0x12, 0x00, 0x00, 0x00, 0x03, 0x00, 0x00, 0x00,
  0xfc, 0x0b, 0x00, 0x00, 0x50, 0x07, 0x00, 0x00, 0x38, 0x07, 0x00, 0x00,
  0x34, 0x00, 0x00, 0x00, 0x04, 0x00, 0x00, 0x00, 0x01, 0x00, 0x00, 0x00,
  0x04, 0x00, 0x00, 0x00, 0xa8, 0xf4, 0xff, 0xff, 0x08, 0x00, 0x00, 0x00,
  0x0c, 0x00, 0x00, 0x00, 0x13, 0x00, 0x00, 0x00, 0x6d, 0x69, 0x6e, 0x5f,
  0x72, 0x75, 0x6e, 0x74, 0x69, 0x6d, 0x65, 0x5f, 0x76, 0x65, 0x72, 0x73,
  0x69, 0x6f, 0x6e, 0x00, 0x0d, 0x00, 0x00, 0x00, 0xf8, 0x06, 0x00, 0x00,
  0x28, 0x06, 0x00, 0x00, 0x04, 0x06, 0x00, 0x00, 0xb4, 0x05, 0x00, 0x00,
  0xa4, 0x01, 0x00, 0x00, 0x54, 0x01, 0x00, 0x00, 0x4c, 0x01, 0x00, 0x00,
  0x44, 0x01, 0x00, 0x00, 0x3c, 0x01, 0x00, 0x00, 0x2c, 0x00, 0x00, 0x00,
  0x24, 0x00, 0x00, 0x00, 0x1c, 0x00, 0x00, 0x00, 0x04, 0x00, 0x00, 0x00,
  0x0e, 0xfa, 0xff, 0xff, 0x04, 0x00, 0x00, 0x00, 0x06, 0x00, 0x00, 0x00,
  0x31, 0x2e, 0x31, 0x34, 0x2e, 0x30, 0x00, 0x00, 0xb4, 0xf4, 0xff, 0xff,
  0xb8, 0xf4, 0xff, 0xff, 0x2a, 0xfa, 0xff, 0xff, 0x04, 0x00, 0x00, 0x00,
  0x00, 0x01, 0x00, 0x00, 0x58, 0x47, 0xd7, 0x3e, 0x1a, 0x2f, 0x02, 0x3f,
  0xed, 0x6c, 0x8b, 0x3e, 0x69, 0x13, 0x28, 0x3f, 0x73, 0x46, 0xa0, 0x3e,
  0xab, 0x7c, 0x29, 0x3f, 0xf8, 0x7b, 0x1c, 0xbf, 0xea, 0x67, 0xec, 0xbe,
  0xe8, 0x72, 0xb0, 0xbe, 0x57, 0xa6, 0xf7, 0xbe, 0x58, 0xe8, 0xc6, 0x3e,
  0xf4, 0x72, 0xd2, 0xbe, 0x40, 0xad, 0x30, 0xbe, 0x4a, 0xa2, 0x74, 0xbe,
  0x30, 0xe7, 0xca, 0x3d, 0xb8, 0xe4, 0x6a, 0xbe, 0x9e, 0x2b, 0x8e, 0xbe,
  0x0a, 0xa5, 0xa5, 0xbc, 0xbf, 0x3d, 0xd8, 0x3e, 0x58, 0xa5, 0x19, 0x3f,
  0x3b, 0xe8, 0xf6, 0x3d, 0x6b, 0xd4, 0x74, 0xbe, 0xdc, 0xec, 0x89, 0xbc,
  0xc6, 0x0c, 0x24, 0x3f, 0xf9, 0xd1, 0x42, 0xbc, 0x9a, 0x1b, 0x1b, 0x3e,
  0x62, 0xf5, 0x31, 0x3e, 0xaf, 0xb9, 0x07, 0x3f, 0x81, 0x75, 0x56, 0xbe,
  0x8f, 0xfa, 0x94, 0x3d, 0x76, 0xe1, 0x31, 0x3f, 0xd6, 0xc6, 0x23, 0x3f,
  0x52, 0x17, 0x4c, 0x3e, 0x47, 0x4d, 0xa1, 0xbe, 0x41, 0xab, 0x6f, 0x3e,
  0x08, 0xba, 0x9a, 0x3d, 0x37, 0xe6, 0xae, 0xbe, 0x4c, 0x8a, 0x28, 0xbe,
  0x48, 0xdd, 0xf7, 0x3e, 0x4f, 0x7b, 0x04, 0xbf, 0xb4, 0x9d, 0xff, 0x3e,
  0x74, 0x91, 0x12, 0x3f, 0x49, 0xa9, 0x4d, 0x3e, 0x52, 0xfd, 0x25, 0xbf,
  0xca, 0xc0, 0x81, 0xbe, 0xc0, 0xcd, 0x19, 0x3e, 0x40, 0x98, 0x2f, 0x3d,
  0xdc, 0x30, 0x37, 0xbe, 0x5c, 0x3b, 0x67, 0xbe, 0xc0, 0x77, 0x2e, 0xbd,
  0xd8, 0x51, 0x07, 0x3e, 0xc0, 0xcc, 0xe4, 0xbe, 0xf6, 0xd8, 0xf8, 0xbe,
  0xf8, 0x2d, 0xcd, 0xbc, 0x10, 0x3c, 0x20, 0x3f, 0xe7, 0xc4, 0xee, 0x3e,
  0xb6, 0x19, 0x50, 0x3e, 0xd2, 0x8b, 0xb0, 0x3e, 0xc3, 0x61, 0xf5, 0xbe,
  0xf3, 0xaa, 0x11, 0xbf, 0xa2, 0xce, 0x88, 0xbe, 0x23, 0x2c, 0x1e, 0x3e,
  0x37, 0x47, 0xdf, 0x3e, 0xc0, 0xe6, 0xba, 0x3e, 0xc8, 0xf5, 0xff, 0xff,
  0xcc, 0xf5, 0xff, 0xff, 0xd0, 0xf5, 0xff, 0xff, 0x42, 0xfb, 0xff, 0xff,
  0x04, 0x00, 0x00, 0x00, 0x40, 0x00, 0x00, 0x00, 0x82, 0x58, 0x51, 0x3c,
  0x29, 0x56, 0xfa, 0x3e, 0x00, 0x00, 0x00, 0x00, 0x00, 0x00, 0x00, 0x00,
  0x96, 0x60, 0xad, 0xbe, 0x09, 0x0b, 0x8b, 0xbe, 0x0a, 0x06, 0xb7, 0xbe,
  0x77, 0xf5, 0x9c, 0xbe, 0x48, 0x15, 0x9b, 0xbe, 0x00, 0x00, 0x00, 0x00,
  0x28, 0x2e, 0x8e, 0x3e, 0x00, 0x00, 0x00, 0x00, 0x00, 0x00, 0x00, 0x00,
  0x0f, 0x09, 0x82, 0xbe, 0x98, 0xc4, 0xd9, 0x3d, 0x42, 0xa7, 0xe3, 0xbe,
  0x8e, 0xfb, 0xff, 0xff, 0x04, 0x00, 0x00, 0x00, 0x00, 0x04, 0x00, 0x00,
  0xd0, 0x2a, 0x78, 0xbe, 0x3b, 0x84, 0xa1, 0x3e, 0xa2, 0xfe, 0x92, 0xbe,
  0xc6, 0x7e, 0xa5, 0xbe, 0x05, 0x3c, 0x5b, 0xbe, 0x8d, 0x3d, 0xa3, 0x3e,
  0x60, 0xd1, 0xe8, 0xbc, 0x9a, 0x37, 0x11, 0xbe, 0x4e, 0x80, 0x3d, 0x3e,
  0x43, 0xca, 0xcd, 0x3e, 0xe5, 0x67, 0x47, 0xbe, 0xf1, 0x73, 0xdd, 0x3e,
  0xc0, 0xe8, 0x72, 0xbd, 0x20, 0x61, 0xc5, 0xbd, 0xa0, 0x51, 0x10, 0x3d,
  0x3c, 0xf2, 0x83, 0xbd, 0x59, 0x0d, 0x96, 0x3e, 0x94, 0xa9, 0x88, 0x3d,
  0x28, 0x53, 0x86, 0x3d, 0x68, 0xf4, 0x4e, 0x3d, 0x92, 0x03, 0x06, 0xbe,
  0x8e, 0x44, 0xfe, 0xbd, 0x90, 0xec, 0x41, 0xbd, 0x04, 0x2b, 0x62, 0x3d,
  0xfe, 0xd9, 0xcf, 0xbe, 0x7d, 0x02, 0xc7, 0x3e, 0xde, 0x9f, 0xa1, 0xbe,
  0x22, 0xfa, 0x21, 0x3e, 0x20, 0x3b, 0x3f, 0xbc, 0x4a, 0x58, 0xc4, 0xbe,
  0x5f, 0x4a, 0xb2, 0xbe, 0xa1, 0x6d, 0xf8, 0xbd, 0x20, 0x7e, 0x51, 0x3c,
  0x2b, 0x88, 0x3a, 0x3f, 0x5c, 0xe9, 0x97, 0xbe, 0xd1, 0xff, 0xb0, 0x3e,
  0xba, 0x49, 0x40, 0xbe, 0xee, 0x90, 0xae, 0x3d, 0x10, 0xae, 0x61, 0x3e,
  0x06, 0xd8, 0x03, 0xbf, 0x92, 0x22, 0xef, 0x3c, 0xd9, 0xa1, 0x88, 0x3e,
  0x7d, 0x1f, 0xa8, 0x3e, 0x74, 0x7e, 0xff, 0xbd, 0x31, 0xbf, 0xc8, 0xbe,
  0xdb, 0x9f, 0x66, 0xbf, 0xe9, 0x9e, 0x29, 0xbe, 0x39, 0xff, 0x5f, 0x3e,
  0x92, 0xe5, 0xba, 0x3d, 0x43, 0x62, 0xae, 0x3f, 0x80, 0x83, 0xc4, 0xbb,
  0x00, 0xa0, 0x05, 0xbe, 0x12, 0xc4, 0x34, 0xbf, 0x38, 0x80, 0xb4, 0xbe,
  0x63, 0x70, 0xcb, 0xbd, 0x2a, 0x62, 0x0e, 0xbf, 0x07, 0x7c, 0x29, 0xbe,
  0xcb, 0x32, 0x89, 0x3e, 0x84, 0xf6, 0x24, 0x3f, 0x4b, 0xc3, 0xc9, 0x3e,
  0x14, 0x78, 0xcc, 0xbe, 0x4f, 0x99, 0xd0, 0xbe, 0xa8, 0x8f, 0x76, 0x3e,
  0x57, 0x4a, 0xa2, 0xbe, 0x3e, 0x6b, 0x5f, 0x3e, 0x83, 0x3d, 0xb5, 0xbe,
  0xbc, 0xa1, 0xf2, 0x3d, 0x67, 0xf3, 0xb5, 0x3e, 0xd9, 0x50, 0xd1, 0x3e,
  0x04, 0xbb, 0xcc, 0xbe, 0x50, 0x98, 0x2e, 0x3d, 0x3b, 0x9a, 0xd4, 0xbe,
  0xe7, 0x1e, 0xd4, 0x3e, 0x14, 0x36, 0xbe, 0xbe, 0xd4, 0xd0, 0xc9, 0xbe,
  0x78, 0x35, 0x62, 0xbe, 0x10, 0x4f, 0x8c, 0x3c, 0x76, 0x6a, 0x31, 0xbe,
  0x32, 0xc0, 0x42, 0x3e, 0x82, 0x3c, 0x5f, 0x3e, 0x0c, 0x2e, 0x76, 0xbe,
  0xed, 0xda, 0x4f, 0xbe, 0xa0, 0xf2, 0xb8, 0xbe, 0x6a, 0x69, 0xd2, 0xbe,
  0xec, 0x46, 0x24, 0xbe, 0xb6, 0x57, 0xd7, 0xbe, 0x61, 0xf7, 0xc1, 0xbe,
  0x04, 0x5b, 0xfa, 0xbd, 0x1b, 0x2e, 0x8d, 0x3e, 0xd1, 0xf1, 0xdb, 0x3e,
  0x74, 0x32, 0xc6, 0xbe, 0x41, 0x70, 0xd6, 0x3e, 0xde, 0x6f, 0x0d, 0x3e,
  0x82, 0x6e, 0x8b, 0xbe, 0x4d, 0x64, 0x94, 0x3e, 0x10, 0x1e, 0xf1, 0xbd,
  0x51, 0x95, 0x38, 0xbe, 0xdc, 0x6b, 0xec, 0xbd, 0xbe, 0x41, 0x50, 0xbe,
  0xd4, 0xbb, 0xa2, 0x3d, 0xe3, 0xde, 0x02, 0x3e, 0x28, 0x72, 0xc9, 0xbd,
  0x18, 0x9b, 0xad, 0xbd, 0x15, 0x19, 0x59, 0x3e, 0xd4, 0x78, 0x08, 0xbd,
  0x89, 0xf9, 0x89, 0x3e, 0x00, 0x0b, 0x01, 0xbe, 0xc2, 0xda, 0xac, 0xbe,
  0xac, 0xcc, 0x9a, 0xbe, 0xba, 0x83, 0xd7, 0x3c, 0xe0, 0x39, 0xab, 0xbc,
  0x02, 0x21, 0x74, 0x3e, 0x60, 0x82, 0x55, 0xbc, 0xe3, 0x04, 0xc8, 0xbe,
  0x23, 0x59, 0x97, 0xbe, 0xb4, 0x71, 0xd4, 0xbe, 0x80, 0x36, 0x72, 0x3c,
  0x89, 0x51, 0xc6, 0x3e, 0x98, 0x56, 0xcb, 0xbe, 0xdb, 0xe1, 0x87, 0x3e,
  0xfa, 0xe4, 0xdb, 0xbe, 0x20, 0x80, 0xce, 0xbc, 0x64, 0xac, 0xbd, 0xbe,
  0x52, 0x32, 0x6f, 0x3e, 0x0c, 0x42, 0xf0, 0x3d, 0x50, 0x5c, 0x92, 0xbd,
  0x3f, 0x23, 0xaa, 0x3e, 0xa0, 0x45, 0x24, 0xbe, 0x32, 0x85, 0xe0, 0x3e,
  0x88, 0x73, 0x3c, 0xbf, 0xce, 0xcf, 0x6d, 0x3e, 0x7b, 0xce, 0x52, 0xbe,
  0xbe, 0xd8, 0x2f, 0x3e, 0x02, 0x01, 0x94, 0x3e, 0x8c, 0xcf, 0x9c, 0x3e,
  0xe0, 0x1b, 0x4b, 0x3f, 0x5a, 0xbc, 0x26, 0x3e, 0x2c, 0x45, 0xcd, 0x3d,
  0x6d, 0xe4, 0x49, 0x3e, 0x13, 0x79, 0xc1, 0x3e, 0x01, 0x69, 0xa3, 0xbe,
  0x4e, 0x17, 0x96, 0xbe, 0xc5, 0xf1, 0x01, 0xbf, 0xee, 0x6a, 0x05, 0x3e,
  0x00, 0xdd, 0xda, 0xbe, 0x02, 0x8f, 0x6e, 0x3e, 0x88, 0xe0, 0x17, 0xbe,
  0x9b, 0x6c, 0x40, 0xbe, 0xec, 0x55, 0xa2, 0xbe, 0x87, 0xf8, 0xbb, 0x3e,
  0x44, 0x61, 0x82, 0x3d, 0xbc, 0x47, 0xb7, 0x3d, 0xd0, 0xe2, 0xce, 0xbe,
  0xf0, 0x77, 0x34, 0xbe, 0x88, 0x92, 0x25, 0xbd, 0xb6, 0x82, 0x75, 0x3e,
  0x10, 0xac, 0xe9, 0xbc, 0xd4, 0x33, 0xbb, 0x3d, 0xac, 0x9f, 0x93, 0x3d,
  0x98, 0xef, 0xc9, 0xbd, 0x15, 0x92, 0x43, 0x3d, 0x87, 0xfa, 0x45, 0x3f,
  0x27, 0x6e, 0x90, 0x3e, 0x09, 0xb1, 0x84, 0x3e, 0xac, 0x40, 0x24, 0xbf,
  0x58, 0xa3, 0x11, 0x3e, 0x28, 0xb1, 0xdb, 0xbe, 0x98, 0x3e, 0x85, 0x3e,
  0xf2, 0x7d, 0xb9, 0xbe, 0x44, 0x9a, 0xd9, 0x3d, 0x42, 0xce, 0xa8, 0x3e,
  0xad, 0x4b, 0xb4, 0xbe, 0x5f, 0x22, 0xdd, 0x3e, 0x0d, 0x3a, 0xea, 0xbe,
  0x81, 0x8d, 0x1d, 0xbe, 0xbb, 0xfb, 0x02, 0xbf, 0xe9, 0x69, 0x19, 0x3e,
  0x71, 0x14, 0x87, 0x3f, 0x02, 0x3f, 0x39, 0x3e, 0x64, 0xab, 0xdf, 0x3d,
  0xa5, 0x91, 0x26, 0xbe, 0x87, 0x14, 0xe7, 0xbe, 0xc0, 0x94, 0xef, 0xbe,
  0xec, 0x23, 0x14, 0xbf, 0x1a, 0x07, 0xc1, 0xbe, 0xa5, 0x40, 0x58, 0xbe,
  0xd6, 0x46, 0xbb, 0xbd, 0xca, 0xda, 0x69, 0x3e, 0x98, 0x7a, 0x7b, 0x3d,
  0xd5, 0xd8, 0xa1, 0x3e, 0xac, 0x42, 0x28, 0x40, 0x92, 0x78, 0xb4, 0xbe,
  0x26, 0xf6, 0xe3, 0xbe, 0x7f, 0xde, 0xaf, 0x3e, 0x28, 0x83, 0xdb, 0xbe,
  0x23, 0x16, 0xab, 0x3e, 0xd0, 0xa6, 0xde, 0xbd, 0x11, 0xae, 0x2b, 0x3e,
  0x36, 0xda, 0x00, 0xbe, 0x62, 0x23, 0x16, 0x3e, 0xfa, 0x01, 0x80, 0xbe,
  0x0b, 0xc8, 0xa7, 0x3e, 0xe4, 0x8b, 0x5c, 0x3e, 0xc4, 0x99, 0xdb, 0x3d,
  0x84, 0x80, 0x4e, 0xbe, 0xbf, 0x88, 0x86, 0xbe, 0x34, 0x1d, 0xbe, 0xbe,
  0x79, 0x5d, 0xa0, 0x3e, 0x42, 0x33, 0xd2, 0x3e, 0x44, 0x3e, 0x4a, 0xbf,
  0x86, 0xf1, 0x76, 0x3e, 0xf1, 0xdb, 0xc9, 0x3e, 0x46, 0x82, 0x2a, 0x3f,
  0xff, 0x65, 0xb0, 0x3e, 0xb4, 0x0f, 0xc2, 0x3e, 0x4d, 0xab, 0xf4, 0x3e,
  0xb1, 0xf5, 0xf6, 0x3e, 0x1d, 0xeb, 0xda, 0x3e, 0x2b, 0xb8, 0xb5, 0xbe,
  0x20, 0xcb, 0xbc, 0x3c, 0x00, 0x0d, 0x06, 0x3d, 0xb1, 0xdb, 0x00, 0x3e,
  0xf2, 0x50, 0x2a, 0x3e, 0x95, 0xf1, 0x78, 0xbd, 0x40, 0xc3, 0xc0, 0xbe,
  0xb9, 0x0f, 0xc5, 0x3e, 0x9b, 0x4b, 0xa1, 0x3e, 0x87, 0x16, 0xdc, 0x3e,
  0xbd, 0x06, 0xb5, 0xbe, 0x62, 0xb3, 0x64, 0x3e, 0x31, 0xa2, 0xb6, 0x3e,
  0x1c, 0xbb, 0x3a, 0xbe, 0x19, 0xb3, 0x82, 0x3e, 0xce, 0xde, 0x4a, 0x3e,
  0x80, 0x8c, 0x04, 0xbd, 0x22, 0x7b, 0x6c, 0x3e, 0x18, 0x76, 0xae, 0xbe,
  0x9a, 0x16, 0x25, 0x3e, 0x14, 0x0f, 0xb5, 0x3d, 0xba, 0xcb, 0x92, 0xbe,
  0xfe, 0x62, 0xdb, 0xbe, 0xcb, 0x20, 0x7b, 0xbd, 0xa3, 0xc3, 0xbc, 0x3e,
  0xbc, 0x20, 0xb8, 0xbd, 0xba, 0x04, 0xb5, 0xbd, 0xe6, 0x05, 0x7e, 0xbe,
  0x17, 0xba, 0x94, 0x3e, 0xe9, 0x98, 0x62, 0x3e, 0x40, 0x15, 0xbd, 0xbd,
  0xb2, 0xa4, 0x1e, 0x3e, 0x6a, 0x31, 0x85, 0x3e, 0xe0, 0x99, 0x34, 0xbe,
  0xe8, 0x87, 0x24, 0xbe, 0xa9, 0x15, 0x41, 0x3c, 0x68, 0x0b, 0xa8, 0xbe,
  0xb6, 0x82, 0x91, 0x3e, 0x9a, 0xff, 0xff, 0xff, 0x04, 0x00, 0x00, 0x00,
  0x40, 0x00, 0x00, 0x00, 0x00, 0x00, 0x00, 0x00, 0xa7, 0x38, 0x33, 0xbd,
  0x02, 0xa8, 0x43, 0x3e, 0x7f, 0xd5, 0x02, 0x3f, 0x00, 0x00, 0x00, 0x00,
  0x00, 0x00, 0x00, 0x00, 0x05, 0xa9, 0xce, 0xbc, 0x00, 0x00, 0x00, 0x00,
  0xb3, 0x99, 0x4f, 0x3c, 0x00, 0x00, 0x00, 0x00, 0xc5, 0x7e, 0x69, 0x3e,
  0xd5, 0x55, 0x0d, 0x3e, 0x96, 0x74, 0x5e, 0xbd, 0x6d, 0xc2, 0x2f, 0xbe,
  0x00, 0x00, 0x00, 0x00, 0xd3, 0x99, 0xf4, 0xbd, 0xe6, 0xff, 0xff, 0xff,
  0x04, 0x00, 0x00, 0x00, 0x0c, 0x00, 0x00, 0x00, 0xfd, 0xe4, 0x0a, 0xbf,
  0xd3, 0x1e, 0x3e, 0xbe, 0x6a, 0x0f, 0x41, 0x3d, 0x00, 0x00, 0x06, 0x00,
  0x08, 0x00, 0x04, 0x00, 0x06, 0x00, 0x00, 0x00, 0x04, 0x00, 0x00, 0x00,
  0xc0, 0x00, 0x00, 0x00, 0x00, 0xbb, 0x43, 0xbc, 0xaf, 0x38, 0x2a, 0xbf,
  0x4a, 0x1e, 0xca, 0xbe, 0xf4, 0x6e, 0xc5, 0x3e, 0x8c, 0x93, 0x0b, 0xbe,
  0x9b, 0xe1, 0xa6, 0xbe, 0xe3, 0x70, 0xd3, 0x3e, 0x65, 0xbe, 0x83, 0xbe,
  0x1e, 0x61, 0xe8, 0xbf, 0x89, 0x67, 0x0f, 0xbf, 0x46, 0x80, 0x09, 0xbf,
  0x5d, 0x38, 0x00, 0x3f, 0xc2, 0xcf, 0xc8, 0x3d, 0x36, 0x66, 0x8a, 0xbf,
  0x46, 0xb6, 0x13, 0xbe, 0x0a, 0xb0, 0x01, 0x3e, 0xf2, 0xae, 0xc1, 0xbe,
  0x09, 0x3a, 0x98, 0x3e, 0x30, 0x26, 0x6b, 0x3e, 0x67, 0xcb, 0xd2, 0xbd,
  0x28, 0xb8, 0x43, 0xbe, 0xc8, 0x74, 0x4b, 0x3e, 0x17, 0x75, 0x5f, 0xbe,
  0xcd, 0xf9, 0x07, 0xbf, 0x5c, 0x9b, 0x0e, 0xbd, 0xba, 0x6f, 0x77, 0xbe,
  0xe5, 0xeb, 0x85, 0x3e, 0x90, 0x47, 0xfb, 0xbf, 0x3c, 0x65, 0x14, 0x3e,
  0x63, 0x4b, 0x73, 0xbf, 0x44, 0x78, 0xa8, 0xbe, 0x38, 0x14, 0xe2, 0xbe,
  0x94, 0xed, 0x8f, 0xbe, 0x91, 0x79, 0x00, 0xbe, 0x79, 0x6d, 0x2d, 0xbf,
  0x30, 0x70, 0x06, 0xc0, 0xb8, 0xfd, 0x05, 0xbf, 0xf0, 0x39, 0x19, 0x3e,
  0x84, 0x1d, 0x36, 0xbd, 0x74, 0x91, 0xc8, 0x3e, 0x0a, 0xe4, 0x42, 0x3e,
  0x74, 0x7b, 0x88, 0xbe, 0x79, 0xbe, 0xa0, 0xbf, 0x94, 0x39, 0x29, 0x3e,
  0xb9, 0x8b, 0x93, 0xbe, 0x76, 0x8c, 0x49, 0xbe, 0x9e, 0x96, 0x87, 0x3e,
  0x46, 0xeb, 0xd6, 0xbe, 0x64, 0xfb, 0xff, 0xff, 0x0f, 0x00, 0x00, 0x00,
  0x54, 0x4f, 0x43, 0x4f, 0x20, 0x43, 0x6f, 0x6e, 0x76, 0x65, 0x72, 0x74,
  0x65, 0x64, 0x2e, 0x00, 0x01, 0x00, 0x00, 0x00, 0x10, 0x00, 0x00, 0x00,
  0x0c, 0x00, 0x14, 0x00, 0x04, 0x00, 0x08, 0x00, 0x0c, 0x00, 0x10, 0x00,
  0x0c, 0x00, 0x00, 0x00, 0x20, 0x01, 0x00, 0x00, 0x14, 0x01, 0x00, 0x00,
  0x08, 0x01, 0x00, 0x00, 0x04, 0x00, 0x00, 0x00, 0x04, 0x00, 0x00, 0x00,
  0xc0, 0x00, 0x00, 0x00, 0x78, 0x00, 0x00, 0x00, 0x34, 0x00, 0x00, 0x00,
  0x10, 0x00, 0x00, 0x00, 0x00, 0x00, 0x0a, 0x00, 0x10, 0x00, 0x04, 0x00,
  0x08, 0x00, 0x0c, 0x00, 0x0a, 0x00, 0x00, 0x00, 0x01, 0x00, 0x00, 0x00,
  0x10, 0x00, 0x00, 0x00, 0x04, 0x00, 0x00, 0x00, 0x01, 0x00, 0x00, 0x00,
  0x00, 0x00, 0x00, 0x00, 0x01, 0x00, 0x00, 0x00, 0x08, 0x00, 0x00, 0x00,
  0xce, 0xff, 0xff, 0xff, 0x00, 0x00, 0x00, 0x08, 0x18, 0x00, 0x00, 0x00,
  0x0c, 0x00, 0x00, 0x00, 0x04, 0x00, 0x00, 0x00, 0xf8, 0xfb, 0xff, 0xff,
  0x01, 0x00, 0x00, 0x00, 0x08, 0x00, 0x00, 0x00, 0x03, 0x00, 0x00, 0x00,
  0x07, 0x00, 0x00, 0x00, 0x09, 0x00, 0x00, 0x00, 0x0a, 0x00, 0x00, 0x00,
  0x00, 0x00, 0x0e, 0x00, 0x14, 0x00, 0x00, 0x00, 0x08, 0x00, 0x0c, 0x00,
  0x07, 0x00, 0x10, 0x00, 0x0e, 0x00, 0x00, 0x00, 0x00, 0x00, 0x00, 0x08,
  0x1c, 0x00, 0x00, 0x00, 0x10, 0x00, 0x00, 0x00, 0x04, 0x00, 0x00, 0x00,
  0xba, 0xff, 0xff, 0xff, 0x00, 0x00, 0x00, 0x01, 0x01, 0x00, 0x00, 0x00,
  0x07, 0x00, 0x00, 0x00, 0x03, 0x00, 0x00, 0x00, 0x04, 0x00, 0x00, 0x00,
  0x05, 0x00, 0x00, 0x00, 0x06, 0x00, 0x00, 0x00, 0x00, 0x00, 0x0e, 0x00,
  0x16, 0x00, 0x00, 0x00, 0x08, 0x00, 0x0c, 0x00, 0x07, 0x00, 0x10, 0x00,
  0x0e, 0x00, 0x00, 0x00, 0x00, 0x00, 0x00, 0x08, 0x24, 0x00, 0x00, 0x00,
  0x18, 0x00, 0x00, 0x00, 0x0c, 0x00, 0x00, 0x00, 0x00, 0x00, 0x06, 0x00,
  0x08, 0x00, 0x07, 0x00, 0x06, 0x00, 0x00, 0x00, 0x00, 0x00, 0x00, 0x01,
  0x01, 0x00, 0x00, 0x00, 0x04, 0x00, 0x00, 0x00, 0x03, 0x00, 0x00, 0x00,
  0x01, 0x00, 0x00, 0x00, 0x02, 0x00, 0x00, 0x00, 0x03, 0x00, 0x00, 0x00,
  0x01, 0x00, 0x00, 0x00, 0x00, 0x00, 0x00, 0x00, 0x01, 0x00, 0x00, 0x00,
  0x01, 0x00, 0x00, 0x00, 0x0b, 0x00, 0x00, 0x00, 0x34, 0x03, 0x00, 0x00,
  0xcc, 0x02, 0x00, 0x00, 0x6c, 0x02, 0x00, 0x00, 0x24, 0x02, 0x00, 0x00,
  0xe0, 0x01, 0x00, 0x00, 0x80, 0x01, 0x00, 0x00, 0x38, 0x01, 0x00, 0x00,
  0xf4, 0x00, 0x00, 0x00, 0xac, 0x00, 0x00, 0x00, 0x4c, 0x00, 0x00, 0x00,
  0x04, 0x00, 0x00, 0x00, 0x06, 0xfd, 0xff, 0xff, 0x38, 0x00, 0x00, 0x00,
  0x02, 0x00, 0x00, 0x00, 0x0c, 0x00, 0x00, 0x00, 0x04, 0x00, 0x00, 0x00,
  0xf8, 0xfc, 0xff, 0xff, 0x1e, 0x00, 0x00, 0x00, 0x73, 0x65, 0x71, 0x75,
  0x65, 0x6e, 0x74, 0x69, 0x61, 0x6c, 0x2f, 0x64, 0x65, 0x6e, 0x73, 0x65,
  0x5f, 0x32, 0x2f, 0x4d, 0x61, 0x74, 0x4d, 0x75, 0x6c, 0x5f, 0x62, 0x69,
  0x61, 0x73, 0x00, 0x00, 0x01, 0x00, 0x00, 0x00, 0x03, 0x00, 0x00, 0x00,
  0x4a, 0xfd, 0xff, 0xff, 0x4c, 0x00, 0x00, 0x00, 0x01, 0x00, 0x00, 0x00,
  0x0c, 0x00, 0x00, 0x00, 0x04, 0x00, 0x00, 0x00, 0x3c, 0xfd, 0xff, 0xff,
  0x32, 0x00, 0x00, 0x00, 0x73, 0x65, 0x71, 0x75, 0x65, 0x6e, 0x74, 0x69,
  0x61, 0x6c, 0x2f, 0x64, 0x65, 0x6e, 0x73, 0x65, 0x5f, 0x32, 0x2f, 0x4d,
  0x61, 0x74, 0x4d, 0x75, 0x6c, 0x2f, 0x52, 0x65, 0x61, 0x64, 0x56, 0x61,
  0x72, 0x69, 0x61, 0x62, 0x6c, 0x65, 0x4f, 0x70, 0x2f, 0x74, 0x72, 0x61,
  0x6e, 0x73, 0x70, 0x6f, 0x73, 0x65, 0x00, 0x00, 0x02, 0x00, 0x00, 0x00,
  0x03, 0x00, 0x00, 0x00, 0x10, 0x00, 0x00, 0x00, 0xa6, 0xfd, 0xff, 0xff,
  0x34, 0x00, 0x00, 0x00, 0x07, 0x00, 0x00, 0x00, 0x0c, 0x00, 0x00, 0x00,
  0x04, 0x00, 0x00, 0x00, 0x98, 0xfd, 0xff, 0xff, 0x1a, 0x00, 0x00, 0x00,
  0x73, 0x65, 0x71, 0x75, 0x65, 0x6e, 0x74, 0x69, 0x61, 0x6c, 0x2f, 0x64,
  0x65, 0x6e, 0x73, 0x65, 0x5f, 0x32, 0x2f, 0x42, 0x69, 0x61, 0x73, 0x41,
  0x64, 0x64, 0x00, 0x00, 0x02, 0x00, 0x00, 0x00, 0x01, 0x00, 0x00, 0x00,
  0x03, 0x00, 0x00, 0x00, 0xea, 0xfd, 0xff, 0xff, 0x30, 0x00, 0x00, 0x00,
  0x0b, 0x00, 0x00, 0x00, 0x0c, 0x00, 0x00, 0x00, 0x04, 0x00, 0x00, 0x00,
  0xdc, 0xfd, 0xff, 0xff, 0x17, 0x00, 0x00, 0x00, 0x73, 0x65, 0x71, 0x75,
  0x65, 0x6e, 0x74, 0x69, 0x61, 0x6c, 0x2f, 0x64, 0x65, 0x6e, 0x73, 0x65,
  0x5f, 0x31, 0x2f, 0x52, 0x65, 0x6c, 0x75, 0x00, 0x02, 0x00, 0x00, 0x00,
  0x01, 0x00, 0x00, 0x00, 0x10, 0x00, 0x00, 0x00, 0x2a, 0xfe, 0xff, 0xff,
  0x38, 0x00, 0x00, 0x00, 0x03, 0x00, 0x00, 0x00, 0x0c, 0x00, 0x00, 0x00,
  0x04, 0x00, 0x00, 0x00, 0x1c, 0xfe, 0xff, 0xff, 0x1e, 0x00, 0x00, 0x00,
  0x73, 0x65, 0x71, 0x75, 0x65, 0x6e, 0x74, 0x69, 0x61, 0x6c, 0x2f, 0x64,
  0x65, 0x6e, 0x73, 0x65, 0x5f, 0x31, 0x2f, 0x4d, 0x61, 0x74, 0x4d, 0x75,
  0x6c, 0x5f, 0x62, 0x69, 0x61, 0x73, 0x00, 0x00, 0x01, 0x00, 0x00, 0x00,
  0x10, 0x00, 0x00, 0x00, 0x6e, 0xfe, 0xff, 0xff, 0x4c, 0x00, 0x00, 0x00,
  0x04, 0x00, 0x00, 0x00, 0x0c, 0x00, 0x00, 0x00, 0x04, 0x00, 0x00, 0x00,
  0x60, 0xfe, 0xff, 0xff, 0x32, 0x00, 0x00, 0x00, 0x73, 0x65, 0x71, 0x75,
  0x65, 0x6e, 0x74, 0x69, 0x61, 0x6c, 0x2f, 0x64, 0x65, 0x6e, 0x73, 0x65,
  0x5f, 0x31, 0x2f, 0x4d, 0x61, 0x74, 0x4d, 0x75, 0x6c, 0x2f, 0x52, 0x65,
  0x61, 0x64, 0x56, 0x61, 0x72, 0x69, 0x61, 0x62, 0x6c, 0x65, 0x4f, 0x70,
  0x2f, 0x74, 0x72, 0x61, 0x6e, 0x73, 0x70, 0x6f, 0x73, 0x65, 0x00, 0x00,
  0x02, 0x00, 0x00, 0x00, 0x10, 0x00, 0x00, 0x00, 0x10, 0x00, 0x00, 0x00,
  0xca, 0xfe, 0xff, 0xff, 0x30, 0x00, 0x00, 0x00, 0x08, 0x00, 0x00, 0x00,
  0x0c, 0x00, 0x00, 0x00, 0x04, 0x00, 0x00, 0x00, 0xbc, 0xfe, 0xff, 0xff,
  0x15, 0x00, 0x00, 0x00, 0x73, 0x65, 0x71, 0x75, 0x65, 0x6e, 0x74, 0x69,
  0x61, 0x6c, 0x2f, 0x64, 0x65, 0x6e, 0x73, 0x65, 0x2f, 0x52, 0x65, 0x6c,
  0x75, 0x00, 0x00, 0x00, 0x02, 0x00, 0x00, 0x00, 0x01, 0x00, 0x00, 0x00,
  0x10, 0x00, 0x00, 0x00, 0x0a, 0xff, 0xff, 0xff, 0x38, 0x00, 0x00, 0x00,
  0x05, 0x00, 0x00, 0x00, 0x0c, 0x00, 0x00, 0x00, 0x04, 0x00, 0x00, 0x00,
  0xfc, 0xfe, 0xff, 0xff, 0x1c, 0x00, 0x00, 0x00, 0x73, 0x65, 0x71, 0x75,
  0x65, 0x6e, 0x74, 0x69, 0x61, 0x6c, 0x2f, 0x64, 0x65, 0x6e, 0x73, 0x65,
  0x2f, 0x4d, 0x61, 0x74, 0x4d, 0x75, 0x6c, 0x5f, 0x62, 0x69, 0x61, 0x73,
  0x00, 0x00, 0x00, 0x00, 0x01, 0x00, 0x00, 0x00, 0x10, 0x00, 0x00, 0x00,
  0x4e, 0xff, 0xff, 0xff, 0x4c, 0x00, 0x00, 0x00, 0x09, 0x00, 0x00, 0x00,
  0x0c, 0x00, 0x00, 0x00, 0x04, 0x00, 0x00, 0x00, 0x40, 0xff, 0xff, 0xff,
  0x30, 0x00, 0x00, 0x00, 0x73, 0x65, 0x71, 0x75, 0x65, 0x6e, 0x74, 0x69,
  0x61, 0x6c, 0x2f, 0x64, 0x65, 0x6e, 0x73, 0x65, 0x2f, 0x4d, 0x61, 0x74,
  0x4d, 0x75, 0x6c, 0x2f, 0x52, 0x65, 0x61, 0x64, 0x56, 0x61, 0x72, 0x69,
  0x61, 0x62, 0x6c, 0x65, 0x4f, 0x70, 0x2f, 0x74, 0x72, 0x61, 0x6e, 0x73,
  0x70, 0x6f, 0x73, 0x65, 0x00, 0x00, 0x00, 0x00, 0x02, 0x00, 0x00, 0x00,
  0x10, 0x00, 0x00, 0x00, 0x04, 0x00, 0x00, 0x00, 0xaa, 0xff, 0xff, 0xff,
  0x44, 0x00, 0x00, 0x00, 0x06, 0x00, 0x00, 0x00, 0x2c, 0x00, 0x00, 0x00,
  0x0c, 0x00, 0x00, 0x00, 0x08, 0x00, 0x0c, 0x00, 0x04, 0x00, 0x08, 0x00,
  0x08, 0x00, 0x00, 0x00, 0x10, 0x00, 0x00, 0x00, 0x04, 0x00, 0x00, 0x00,
  0x01, 0x00, 0x00, 0x00, 0x00, 0x00, 0x7f, 0x43, 0x01, 0x00, 0x00, 0x00,
  0x00, 0x00, 0x00, 0x00, 0x0b, 0x00, 0x00, 0x00, 0x64, 0x65, 0x6e, 0x73,
  0x65, 0x5f, 0x69, 0x6e, 0x70, 0x75, 0x74, 0x00, 0x02, 0x00, 0x00, 0x00,
  0x01, 0x00, 0x00, 0x00, 0x04, 0x00, 0x00, 0x00, 0x00, 0x00, 0x0e, 0x00,
  0x14, 0x00, 0x04, 0x00, 0x00, 0x00, 0x08, 0x00, 0x0c, 0x00, 0x10, 0x00,
  0x0e, 0x00, 0x00, 0x00, 0x28, 0x00, 0x00, 0x00, 0x0a, 0x00, 0x00, 0x00,
  0x10, 0x00, 0x00, 0x00, 0x08, 0x00, 0x00, 0x00, 0x04, 0x00, 0x04, 0x00,
  0x04, 0x00, 0x00, 0x00, 0x08, 0x00, 0x00, 0x00, 0x49, 0x64, 0x65, 0x6e,
  0x74, 0x69, 0x74, 0x79, 0x00, 0x00, 0x00, 0x00, 0x02, 0x00, 0x00, 0x00,
  0x01, 0x00, 0x00, 0x00, 0x03, 0x00, 0x00, 0x00, 0x02, 0x00, 0x00, 0x00,
  0x20, 0x00, 0x00, 0x00, 0x0c, 0x00, 0x00, 0x00, 0x00, 0x00, 0x06, 0x00,
  0x06, 0x00, 0x05, 0x00, 0x06, 0x00, 0x00, 0x00, 0x00, 0x0e, 0x0a, 0x00,
  0x0c, 0x00, 0x07, 0x00, 0x00, 0x00, 0x08, 0x00, 0x0a, 0x00, 0x00, 0x00,
  0x00, 0x00, 0x00, 0x09, 0x03, 0x00, 0x00, 0x00
};
const int mi_data_len =   3152;


